#ifndef SINE_MODEL_H
#define SINE_MODEL_H


unsigned int sine_model_len = 3168;
unsigned char sine_model[] = {
 0x1c, 0x00, 0x00, 0x00, 0x54, 0x46, 0x4c, 0x33, 0x14, 0x00, 0x20, 0x00,
  0x1c, 0x00, 0x18, 0x00, 0x14, 0x00, 0x10, 0x00, 0x0c, 0x00, 0x00, 0x00,
  0x08, 0x00, 0x04, 0x00, 0x14, 0x00, 0x00, 0x00, 0x1c, 0x00, 0x00, 0x00,
  0x98, 0x00, 0x00, 0x00, 0xf0, 0x00, 0x00, 0x00, 0x14, 0x07, 0x00, 0x00,
  0x24, 0x07, 0x00, 0x00, 0x0c, 0x0c, 0x00, 0x00, 0x03, 0x00, 0x00, 0x00,
  0x01, 0x00, 0x00, 0x00, 0x10, 0x00, 0x00, 0x00, 0x00, 0x00, 0x0a, 0x00,
  0x10, 0x00, 0x0c, 0x00, 0x08, 0x00, 0x04, 0x00, 0x0a, 0x00, 0x00, 0x00,
  0x0c, 0x00, 0x00, 0x00, 0x1c, 0x00, 0x00, 0x00, 0x3c, 0x00, 0x00, 0x00,
  0x0f, 0x00, 0x00, 0x00, 0x73, 0x65, 0x72, 0x76, 0x69, 0x6e, 0x67, 0x5f,
  0x64, 0x65, 0x66, 0x61, 0x75, 0x6c, 0x74, 0x00, 0x01, 0x00, 0x00, 0x00,
  0x04, 0x00, 0x00, 0x00, 0x90, 0xff, 0xff, 0xff, 0x09, 0x00, 0x00, 0x00,
  0x04, 0x00, 0x00, 0x00, 0x08, 0x00, 0x00, 0x00, 0x6f, 0x75, 0x74, 0x70,
  0x75, 0x74, 0x5f, 0x30, 0x00, 0x00, 0x00, 0x00, 0x01, 0x00, 0x00, 0x00,
  0x04, 0x00, 0x00, 0x00, 0xba, 0xf9, 0xff, 0xff, 0x04, 0x00, 0x00, 0x00,
  0x0c, 0x00, 0x00, 0x00, 0x6b, 0x65, 0x72, 0x61, 0x73, 0x5f, 0x74, 0x65,
  0x6e, 0x73, 0x6f, 0x72, 0x00, 0x00, 0x00, 0x00, 0x02, 0x00, 0x00, 0x00,
  0x34, 0x00, 0x00, 0x00, 0x04, 0x00, 0x00, 0x00, 0xdc, 0xff, 0xff, 0xff,
  0x0c, 0x00, 0x00, 0x00, 0x04, 0x00, 0x00, 0x00, 0x13, 0x00, 0x00, 0x00,
  0x43, 0x4f, 0x4e, 0x56, 0x45, 0x52, 0x53, 0x49, 0x4f, 0x4e, 0x5f, 0x4d,
  0x45, 0x54, 0x41, 0x44, 0x41, 0x54, 0x41, 0x00, 0x08, 0x00, 0x0c, 0x00,
  0x08, 0x00, 0x04, 0x00, 0x08, 0x00, 0x00, 0x00, 0x0b, 0x00, 0x00, 0x00,
  0x04, 0x00, 0x00, 0x00, 0x13, 0x00, 0x00, 0x00, 0x6d, 0x69, 0x6e, 0x5f,
  0x72, 0x75, 0x6e, 0x74, 0x69, 0x6d, 0x65, 0x5f, 0x76, 0x65, 0x72, 0x73,
  0x69, 0x6f, 0x6e, 0x00, 0x0d, 0x00, 0x00, 0x00, 0x20, 0x06, 0x00, 0x00,
  0x18, 0x06, 0x00, 0x00, 0xc8, 0x05, 0x00, 0x00, 0xb0, 0x01, 0x00, 0x00,
  0x9c, 0x01, 0x00, 0x00, 0x4c, 0x01, 0x00, 0x00, 0xfc, 0x00, 0x00, 0x00,
  0xac, 0x00, 0x00, 0x00, 0xa4, 0x00, 0x00, 0x00, 0x9c, 0x00, 0x00, 0x00,
  0x94, 0x00, 0x00, 0x00, 0x74, 0x00, 0x00, 0x00, 0x04, 0x00, 0x00, 0x00,
  0x6a, 0xfa, 0xff, 0xff, 0x04, 0x00, 0x00, 0x00, 0x60, 0x00, 0x00, 0x00,
  0x0c, 0x00, 0x00, 0x00, 0x08, 0x00, 0x0e, 0x00, 0x08, 0x00, 0x04, 0x00,
  0x08, 0x00, 0x00, 0x00, 0x10, 0x00, 0x00, 0x00, 0x28, 0x00, 0x00, 0x00,
  0x00, 0x00, 0x06, 0x00, 0x08, 0x00, 0x04, 0x00, 0x06, 0x00, 0x00, 0x00,
  0x04, 0x00, 0x00, 0x00, 0x01, 0x00, 0x00, 0x00, 0xea, 0x03, 0x00, 0x00,
  0x0c, 0x00, 0x18, 0x00, 0x14, 0x00, 0x10, 0x00, 0x0c, 0x00, 0x04, 0x00,
  0x0c, 0x00, 0x00, 0x00, 0xec, 0xb7, 0xa8, 0x9a, 0xd0, 0xf4, 0x0a, 0xe3,
  0x02, 0x00, 0x00, 0x00, 0x02, 0x00, 0x00, 0x00, 0x04, 0x00, 0x00, 0x00,
  0x06, 0x00, 0x00, 0x00, 0x32, 0x2e, 0x31, 0x39, 0x2e, 0x30, 0x00, 0x00,
  0xd6, 0xfa, 0xff, 0xff, 0x04, 0x00, 0x00, 0x00, 0x10, 0x00, 0x00, 0x00,
  0x31, 0x2e, 0x35, 0x2e, 0x30, 0x00, 0x00, 0x00, 0x00, 0x00, 0x00, 0x00,
  0x00, 0x00, 0x00, 0x00, 0xd0, 0xf5, 0xff, 0xff, 0xd4, 0xf5, 0xff, 0xff,
  0xd8, 0xf5, 0xff, 0xff, 0xfe, 0xfa, 0xff, 0xff, 0x04, 0x00, 0x00, 0x00,
  0x40, 0x00, 0x00, 0x00, 0x90, 0x7b, 0x5b, 0xbe, 0x8f, 0x75, 0x00, 0x3f,
  0xc2, 0x54, 0xe0, 0xbe, 0x57, 0xb5, 0x85, 0xbe, 0x7c, 0xef, 0xc3, 0xbd,
  0xd6, 0x8c, 0xae, 0xbe, 0xb6, 0x65, 0xb6, 0xbe, 0x7e, 0x39, 0x00, 0xbf,
  0x2a, 0x69, 0x86, 0xbe, 0x61, 0xc3, 0xaf, 0x3e, 0xa5, 0xca, 0xf0, 0x3e,
  0x85, 0xfc, 0x91, 0x3e, 0x6c, 0xd9, 0xad, 0xbe, 0xec, 0x94, 0x36, 0xbe,
  0x00, 0xfd, 0x90, 0xbe, 0xea, 0xb0, 0xd6, 0xbe, 0x4a, 0xfb, 0xff, 0xff,
  0x04, 0x00, 0x00, 0x00, 0x40, 0x00, 0x00, 0x00, 0x00, 0x00, 0x00, 0x00,
  0xc9, 0x3b, 0xad, 0xbd, 0x00, 0x00, 0x00, 0x00, 0x00, 0x00, 0x00, 0x00,
  0x00, 0x00, 0x00, 0x00, 0x00, 0x00, 0x00, 0x00, 0x00, 0x00, 0x00, 0x00,
  0x00, 0x00, 0x00, 0x00, 0x00, 0x00, 0x00, 0x00, 0x05, 0x55, 0xb9, 0xbe,
  0x23, 0x0d, 0x33, 0xbb, 0xc9, 0xaa, 0x0f, 0x3e, 0x00, 0x00, 0x00, 0x00,
  0x00, 0x00, 0x00, 0x00, 0x00, 0x00, 0x00, 0x00, 0x00, 0x00, 0x00, 0x00,
  0x96, 0xfb, 0xff, 0xff, 0x04, 0x00, 0x00, 0x00, 0x40, 0x00, 0x00, 0x00,
  0x99, 0xa4, 0x72, 0x3e, 0x8d, 0xd0, 0x47, 0xbc, 0x00, 0x00, 0x00, 0x00,
  0x03, 0xe0, 0x4c, 0xbe, 0xa4, 0xcb, 0xd6, 0xba, 0x39, 0x95, 0xe8, 0xbe,
  0x36, 0x98, 0xc3, 0x3e, 0x74, 0x42, 0x8f, 0xbe, 0x6d, 0x21, 0xcb, 0xbe,
  0x5e, 0x3a, 0x80, 0x3e, 0x4b, 0xde, 0xd3, 0xbe, 0x00, 0x00, 0x00, 0x00,
  0x36, 0x45, 0x41, 0xbc, 0x00, 0x00, 0x00, 0x00, 0x4f, 0x10, 0xfd, 0x3e,
  0xb4, 0x56, 0x7e, 0x3e, 0xe2, 0xfb, 0xff, 0xff, 0x04, 0x00, 0x00, 0x00,
  0x04, 0x00, 0x00, 0x00, 0xed, 0x29, 0x7f, 0x3e, 0xf2, 0xfb, 0xff, 0xff,
  0x04, 0x00, 0x00, 0x00, 0x00, 0x04, 0x00, 0x00, 0x60, 0x03, 0x7c, 0xbe,
  0x92, 0xf3, 0xff, 0x3d, 0xc6, 0x7b, 0x56, 0x3e, 0x23, 0x5a, 0xb1, 0x3e,
  0x8b, 0xb1, 0xb4, 0xbe, 0x91, 0x23, 0xd5, 0x3e, 0xa1, 0xdd, 0x95, 0xbe,
  0xe5, 0x1b, 0xac, 0xbe, 0x2c, 0x17, 0x88, 0xbd, 0x9f, 0xae, 0xa4, 0x3d,
  0xde, 0xfb, 0x9b, 0x3e, 0x40, 0xb1, 0xe3, 0x3e, 0xea, 0xed, 0x0c, 0xbe,
  0xbe, 0xc2, 0x95, 0xbe, 0x9a, 0x3e, 0x19, 0xbe, 0x00, 0xe8, 0x07, 0xbe,
  0xb6, 0x6a, 0x0c, 0x3e, 0x84, 0xa1, 0x68, 0x3d, 0x76, 0x61, 0x53, 0x3e,
  0x94, 0xd1, 0x26, 0xbe, 0xc1, 0xc9, 0x51, 0xbe, 0xef, 0xf5, 0xa8, 0x3e,
  0x68, 0xcf, 0x1c, 0x3d, 0x5e, 0x6a, 0x45, 0x3e, 0xdd, 0x24, 0x8f, 0x3e,
  0x98, 0x27, 0x84, 0xbe, 0xf2, 0x63, 0xa9, 0x3e, 0x8e, 0x10, 0x9c, 0xbe,
  0x90, 0x55, 0xd2, 0x3c, 0x64, 0xc2, 0xb4, 0x3d, 0xc0, 0xac, 0x95, 0xbd,
  0x02, 0x22, 0x31, 0xbe, 0x78, 0xb2, 0xa8, 0xbe, 0x74, 0x76, 0xcc, 0xbe,
  0x4a, 0x6e, 0x59, 0x3e, 0x06, 0xb2, 0x0f, 0x3e, 0xf2, 0x1e, 0x42, 0xbe,
  0xa4, 0x22, 0xaa, 0xbd, 0x22, 0x52, 0x8e, 0xbe, 0xfb, 0xe9, 0xcd, 0x3e,
  0xfd, 0xbe, 0xab, 0x3e, 0x5c, 0x55, 0xb8, 0x3d, 0xe8, 0x39, 0x17, 0xbe,
  0x30, 0x3d, 0xd1, 0xbd, 0xaa, 0x87, 0x40, 0x3e, 0xdb, 0xfc, 0x9e, 0x3e,
  0x7e, 0xc1, 0x69, 0x3e, 0xdb, 0x8c, 0x62, 0xbe, 0x14, 0x1b, 0xdc, 0x3d,
  0x5f, 0xb5, 0x1e, 0x3e, 0xb8, 0xd4, 0x33, 0xbe, 0x9d, 0x2a, 0xda, 0xbe,
  0x0e, 0xda, 0x66, 0x3e, 0x28, 0xd7, 0x76, 0xbd, 0xfc, 0x90, 0xf7, 0x3d,
  0x17, 0x2f, 0xb0, 0x3e, 0x68, 0xe9, 0x1b, 0xbe, 0x93, 0xe6, 0xe1, 0x3e,
  0x0c, 0x08, 0x4e, 0xbe, 0x3f, 0x63, 0x93, 0x3e, 0x76, 0x89, 0x7a, 0x3e,
  0x21, 0x32, 0x80, 0x3e, 0x1c, 0xa0, 0xf8, 0xbd, 0x5a, 0x17, 0x10, 0x3e,
  0x4c, 0xbb, 0x6f, 0xbe, 0x6f, 0xd3, 0xba, 0xbe, 0x99, 0xa1, 0x9f, 0x3e,
  0xa7, 0xe1, 0x98, 0x3e, 0x70, 0xff, 0xa5, 0xbd, 0x8c, 0xec, 0xc0, 0x3d,
  0x77, 0x04, 0x71, 0xbe, 0xf4, 0x0d, 0xbb, 0x3d, 0x78, 0x30, 0x15, 0xbd,
  0x26, 0x4e, 0x45, 0x3e, 0xe4, 0xae, 0x9e, 0x3d, 0xbc, 0x00, 0x20, 0xbd,
  0xeb, 0xfb, 0xa1, 0x3e, 0xac, 0xb6, 0xe4, 0xbd, 0x50, 0xc0, 0x70, 0xbd,
  0x00, 0x69, 0xf8, 0x3b, 0xb6, 0xf4, 0x8a, 0xbe, 0x5b, 0xa3, 0x9a, 0x3e,
  0xc2, 0x1d, 0x2e, 0xbe, 0x0e, 0x3a, 0x33, 0x3e, 0xe1, 0x0b, 0xb7, 0x3e,
  0xa0, 0xc7, 0x67, 0xbd, 0xf0, 0x6b, 0x00, 0x3d, 0xd5, 0x6d, 0x3c, 0xbe,
  0xe8, 0x4f, 0x31, 0xbe, 0xb2, 0x7f, 0xdc, 0xbb, 0x5e, 0x47, 0xf7, 0x3d,
  0x91, 0x26, 0x91, 0x3e, 0x18, 0x78, 0x8a, 0xbd, 0xe6, 0x86, 0x0a, 0x3e,
  0x00, 0xa3, 0xf0, 0x3b, 0x7c, 0x87, 0x39, 0xbe, 0x32, 0xa4, 0x5a, 0xbe,
  0xc6, 0x41, 0x5e, 0xbf, 0xe4, 0xea, 0x95, 0xbd, 0xef, 0x69, 0xba, 0x3e,
  0x2b, 0x5f, 0x52, 0xbe, 0x7c, 0x0b, 0xc8, 0xbd, 0xe2, 0xa6, 0x66, 0x3e,
  0xfe, 0x12, 0xa7, 0xbe, 0x1d, 0x19, 0xae, 0x3e, 0x86, 0x35, 0x25, 0xbf,
  0x7a, 0x96, 0x1a, 0xbf, 0x81, 0xb8, 0x14, 0x3e, 0xc3, 0x8a, 0xc9, 0xbe,
  0xa8, 0x45, 0xce, 0xbe, 0xe8, 0xcb, 0x70, 0x3d, 0xf8, 0x9c, 0xd5, 0xbe,
  0xe1, 0x06, 0xc0, 0x3e, 0xcc, 0x9d, 0x09, 0x3f, 0x4a, 0xdf, 0xa6, 0xbe,
  0x19, 0xde, 0x87, 0x3e, 0x80, 0x22, 0xe0, 0x3c, 0x78, 0xc3, 0x31, 0xbe,
  0x5a, 0x29, 0x6e, 0x3e, 0xc8, 0xb2, 0x02, 0x3d, 0x3a, 0xe5, 0x39, 0x3e,
  0xc1, 0x50, 0x7b, 0xbd, 0x29, 0x5d, 0x48, 0x3c, 0x01, 0xe6, 0x18, 0xbe,
  0x32, 0x2e, 0x33, 0xbe, 0x4c, 0xe1, 0xd1, 0xbd, 0x6c, 0x49, 0xd1, 0x3d,
  0x12, 0x98, 0x1f, 0x3e, 0xbc, 0x03, 0x13, 0xbe, 0x5a, 0x46, 0x5b, 0x3e,
  0xee, 0x62, 0x5b, 0x3e, 0x36, 0xa3, 0x52, 0x3e, 0xd0, 0xb1, 0xd3, 0xbe,
  0xbc, 0x5a, 0xf6, 0x3d, 0x00, 0x6e, 0xe5, 0xba, 0x19, 0xe9, 0x74, 0xbe,
  0x2c, 0xe0, 0xb5, 0x3d, 0xba, 0x87, 0x59, 0x3e, 0xf6, 0x3b, 0xe0, 0x3e,
  0x39, 0xd1, 0xa9, 0xba, 0x18, 0x1c, 0xa9, 0xbe, 0x52, 0x03, 0x68, 0x3e,
  0xd5, 0xac, 0xd0, 0x3e, 0x80, 0x20, 0x0b, 0x3d, 0x50, 0x08, 0x29, 0xbe,
  0x87, 0xf0, 0x70, 0xbd, 0x7b, 0x46, 0xdd, 0x3e, 0x68, 0xb5, 0x48, 0xbd,
  0x14, 0x0d, 0xd3, 0xbe, 0x3a, 0x11, 0x4f, 0x3e, 0x96, 0xc6, 0xc7, 0xbe,
  0x32, 0x41, 0x5a, 0x3e, 0x97, 0x50, 0x98, 0x3e, 0xc6, 0x7f, 0xce, 0xbe,
  0x5f, 0xce, 0xce, 0x3e, 0x3f, 0x68, 0xbc, 0x3e, 0x0f, 0xa9, 0xb1, 0x3e,
  0x8c, 0x89, 0x93, 0xbe, 0x7f, 0x1c, 0xd4, 0x3e, 0x16, 0x8d, 0x67, 0x3e,
  0x49, 0xce, 0x90, 0xbe, 0x20, 0xad, 0x89, 0xbe, 0x53, 0xc4, 0xb4, 0x3e,
  0xac, 0x5d, 0xcb, 0xbe, 0xf0, 0x01, 0xda, 0xbc, 0x34, 0x36, 0xd9, 0xbe,
  0xf8, 0xa8, 0xac, 0xbd, 0xf9, 0xe2, 0xd8, 0x3e, 0x09, 0x04, 0x8c, 0x3e,
  0x7e, 0xb3, 0x0b, 0x3f, 0xb9, 0x4e, 0xed, 0x3e, 0x41, 0x80, 0x9c, 0x3e,
  0x09, 0x95, 0x3d, 0xbe, 0x6f, 0x12, 0x9a, 0x3e, 0xb6, 0xc1, 0x4f, 0x3e,
  0x47, 0x28, 0xb1, 0x3e, 0x1c, 0xe7, 0xfb, 0x3d, 0x7e, 0xb7, 0x43, 0x3e,
  0x08, 0x59, 0x72, 0xbe, 0x44, 0xa6, 0x9e, 0x3d, 0x19, 0x36, 0xba, 0x3e,
  0xff, 0x09, 0xc1, 0x3e, 0xc6, 0x0e, 0x75, 0x3e, 0xf8, 0x79, 0x7c, 0xbd,
  0xe2, 0x11, 0x6b, 0x3e, 0x30, 0xf5, 0xe1, 0xbd, 0xde, 0xf6, 0xa0, 0xbe,
  0x7b, 0x8b, 0xd1, 0xbe, 0xe1, 0xfd, 0x6b, 0xbe, 0xa9, 0xc1, 0xbc, 0xbe,
  0x66, 0xa9, 0x83, 0xbe, 0x79, 0xc1, 0xc2, 0x3e, 0x09, 0x4e, 0x9e, 0x3e,
  0xa9, 0x58, 0xe2, 0x3d, 0x27, 0xeb, 0x61, 0xbe, 0xd2, 0xb5, 0x69, 0x3e,
  0x8f, 0xd6, 0x9b, 0x3e, 0x52, 0x81, 0xc2, 0xbe, 0x3f, 0xa0, 0x80, 0x3e,
  0xc0, 0x4f, 0x84, 0x3c, 0x44, 0x69, 0xbb, 0x3d, 0xff, 0x27, 0xae, 0x3d,
  0x59, 0xcc, 0xa3, 0x3d, 0x74, 0x0e, 0xc3, 0xbe, 0xa6, 0xb6, 0x24, 0x3e,
  0x2c, 0x65, 0x70, 0xbe, 0x78, 0x7e, 0x46, 0xbd, 0xb9, 0x6f, 0xc1, 0x3e,
  0xe5, 0xb3, 0x6a, 0xbe, 0xf4, 0xf2, 0x90, 0xbe, 0xa0, 0x77, 0xc3, 0x3c,
  0xe4, 0x32, 0x91, 0xbe, 0x7d, 0xfb, 0xca, 0x3e, 0xa0, 0x2f, 0x1a, 0xbe,
  0xf4, 0x5b, 0x80, 0xbe, 0x11, 0x39, 0x58, 0xbe, 0x1b, 0x41, 0x92, 0x3e,
  0x0a, 0x3b, 0x45, 0xbe, 0x90, 0x86, 0x10, 0xbd, 0x70, 0xc6, 0x95, 0xbe,
  0xfa, 0xa9, 0x52, 0x3e, 0x90, 0x52, 0xb2, 0xbc, 0x31, 0xb9, 0xad, 0x3e,
  0xdb, 0xd3, 0x8d, 0x3e, 0x43, 0xc3, 0xbf, 0x3e, 0xa8, 0xb4, 0x30, 0xbf,
  0x0c, 0xed, 0xd4, 0x3d, 0xf3, 0x95, 0x83, 0x3e, 0x37, 0xf9, 0x92, 0x3e,
  0xb3, 0xbc, 0x9e, 0xbe, 0x3a, 0xc3, 0x1a, 0xbe, 0x0a, 0x4c, 0xbe, 0xbe,
  0x59, 0x2d, 0x84, 0x3e, 0xf4, 0x42, 0x89, 0xbf, 0x9e, 0xf0, 0xb5, 0xbe,
  0x2e, 0x4d, 0x39, 0x3e, 0xdb, 0x89, 0x6b, 0xbe, 0x3e, 0x1a, 0x01, 0x3e,
  0x04, 0xd7, 0xb0, 0xbe, 0x4d, 0x53, 0xda, 0x3e, 0x3b, 0x4c, 0xc9, 0xbe,
  0x7b, 0xc7, 0x72, 0xbe, 0x9c, 0x7a, 0xbc, 0xbd, 0x86, 0x63, 0xc7, 0xbe,
  0x2f, 0x8e, 0x41, 0xbe, 0x26, 0xea, 0x1c, 0x3e, 0xe4, 0xdc, 0xdc, 0x3d,
  0x1a, 0xd2, 0x98, 0xbe, 0x22, 0xce, 0x42, 0x3e, 0xff, 0x77, 0xaf, 0x3d,
  0x22, 0xe9, 0xaf, 0x3e, 0x88, 0xfa, 0x87, 0x3e, 0xc3, 0xfe, 0xc0, 0x3e,
  0x94, 0x2a, 0x3c, 0xbe, 0x46, 0x16, 0x5a, 0xbe, 0x7e, 0xda, 0x93, 0xbe,
  0x00, 0x00, 0x06, 0x00, 0x08, 0x00, 0x04, 0x00, 0x06, 0x00, 0x00, 0x00,
  0x04, 0x00, 0x00, 0x00, 0x40, 0x00, 0x00, 0x00, 0x2b, 0x8d, 0x06, 0x3e,
  0x87, 0xa8, 0x83, 0xbe, 0x02, 0xdf, 0xc7, 0xbe, 0x55, 0x96, 0xbe, 0xbe,
  0x86, 0x60, 0x4b, 0xbe, 0x2c, 0x67, 0xaa, 0xbe, 0xef, 0xd5, 0x20, 0xbf,
  0x79, 0x62, 0x0b, 0xbf, 0x87, 0x0c, 0x1c, 0xbf, 0x64, 0x29, 0x0d, 0x3f,
  0x80, 0x96, 0x03, 0xbf, 0x2b, 0x51, 0x11, 0xbf, 0x02, 0xb2, 0x41, 0xbe,
  0x25, 0x03, 0x02, 0xbf, 0x7c, 0x00, 0x2b, 0xbf, 0x09, 0xf7, 0x2c, 0x3f,
  0x30, 0xfb, 0xff, 0xff, 0x34, 0xfb, 0xff, 0xff, 0x0f, 0x00, 0x00, 0x00,
  0x4d, 0x4c, 0x49, 0x52, 0x20, 0x43, 0x6f, 0x6e, 0x76, 0x65, 0x72, 0x74,
  0x65, 0x64, 0x2e, 0x00, 0x01, 0x00, 0x00, 0x00, 0x14, 0x00, 0x00, 0x00,
  0x00, 0x00, 0x0e, 0x00, 0x18, 0x00, 0x14, 0x00, 0x10, 0x00, 0x0c, 0x00,
  0x08, 0x00, 0x04, 0x00, 0x0e, 0x00, 0x00, 0x00, 0x14, 0x00, 0x00, 0x00,
  0x1c, 0x00, 0x00, 0x00, 0xd8, 0x00, 0x00, 0x00, 0xdc, 0x00, 0x00, 0x00,
  0xe0, 0x00, 0x00, 0x00, 0x04, 0x00, 0x00, 0x00, 0x6d, 0x61, 0x69, 0x6e,
  0x00, 0x00, 0x00, 0x00, 0x03, 0x00, 0x00, 0x00, 0x80, 0x00, 0x00, 0x00,
  0x38, 0x00, 0x00, 0x00, 0x04, 0x00, 0x00, 0x00, 0x9a, 0xff, 0xff, 0xff,
  0x10, 0x00, 0x00, 0x00, 0x00, 0x00, 0x00, 0x08, 0x0c, 0x00, 0x00, 0x00,
  0x10, 0x00, 0x00, 0x00, 0xac, 0xfb, 0xff, 0xff, 0x01, 0x00, 0x00, 0x00,
  0x09, 0x00, 0x00, 0x00, 0x03, 0x00, 0x00, 0x00, 0x08, 0x00, 0x00, 0x00,
  0x01, 0x00, 0x00, 0x00, 0x03, 0x00, 0x00, 0x00, 0xca, 0xff, 0xff, 0xff,
  0x10, 0x00, 0x00, 0x00, 0x00, 0x00, 0x00, 0x08, 0x10, 0x00, 0x00, 0x00,
  0x14, 0x00, 0x00, 0x00, 0xba, 0xff, 0xff, 0xff, 0x00, 0x00, 0x00, 0x01,
  0x01, 0x00, 0x00, 0x00, 0x08, 0x00, 0x00, 0x00, 0x03, 0x00, 0x00, 0x00,
  0x07, 0x00, 0x00, 0x00, 0x02, 0x00, 0x00, 0x00, 0x04, 0x00, 0x00, 0x00,
  0x00, 0x00, 0x0e, 0x00, 0x16, 0x00, 0x00, 0x00, 0x10, 0x00, 0x0c, 0x00,
  0x0b, 0x00, 0x04, 0x00, 0x0e, 0x00, 0x00, 0x00, 0x18, 0x00, 0x00, 0x00,
  0x00, 0x00, 0x00, 0x08, 0x18, 0x00, 0x00, 0x00, 0x1c, 0x00, 0x00, 0x00,
  0x00, 0x00, 0x06, 0x00, 0x08, 0x00, 0x07, 0x00, 0x06, 0x00, 0x00, 0x00,
  0x00, 0x00, 0x00, 0x01, 0x01, 0x00, 0x00, 0x00, 0x07, 0x00, 0x00, 0x00,
  0x03, 0x00, 0x00, 0x00, 0x00, 0x00, 0x00, 0x00, 0x06, 0x00, 0x00, 0x00,
  0x05, 0x00, 0x00, 0x00, 0x01, 0x00, 0x00, 0x00, 0x09, 0x00, 0x00, 0x00,
  0x01, 0x00, 0x00, 0x00, 0x00, 0x00, 0x00, 0x00, 0x0a, 0x00, 0x00, 0x00,
  0x7c, 0x03, 0x00, 0x00, 0x24, 0x03, 0x00, 0x00, 0xcc, 0x02, 0x00, 0x00,
  0x90, 0x02, 0x00, 0x00, 0x34, 0x02, 0x00, 0x00, 0xdc, 0x01, 0x00, 0x00,
  0x90, 0x01, 0x00, 0x00, 0xfc, 0x00, 0x00, 0x00, 0x60, 0x00, 0x00, 0x00,
  0x04, 0x00, 0x00, 0x00, 0xc2, 0xfc, 0xff, 0xff, 0x00, 0x00, 0x00, 0x01,
  0x14, 0x00, 0x00, 0x00, 0x1c, 0x00, 0x00, 0x00, 0x1c, 0x00, 0x00, 0x00,
  0x0a, 0x00, 0x00, 0x00, 0x34, 0x00, 0x00, 0x00, 0x02, 0x00, 0x00, 0x00,
  0xff, 0xff, 0xff, 0xff, 0x01, 0x00, 0x00, 0x00, 0xac, 0xfc, 0xff, 0xff,
  0x1b, 0x00, 0x00, 0x00, 0x53, 0x74, 0x61, 0x74, 0x65, 0x66, 0x75, 0x6c,
  0x50, 0x61, 0x72, 0x74, 0x69, 0x74, 0x69, 0x6f, 0x6e, 0x65, 0x64, 0x43,
  0x61, 0x6c, 0x6c, 0x5f, 0x31, 0x3a, 0x30, 0x00, 0x02, 0x00, 0x00, 0x00,
  0x01, 0x00, 0x00, 0x00, 0x01, 0x00, 0x00, 0x00, 0x1a, 0xfd, 0xff, 0xff,
  0x00, 0x00, 0x00, 0x01, 0x14, 0x00, 0x00, 0x00, 0x1c, 0x00, 0x00, 0x00,
  0x1c, 0x00, 0x00, 0x00, 0x09, 0x00, 0x00, 0x00, 0x74, 0x00, 0x00, 0x00,
  0x02, 0x00, 0x00, 0x00, 0xff, 0xff, 0xff, 0xff, 0x10, 0x00, 0x00, 0x00,
  0x04, 0xfd, 0xff, 0xff, 0x58, 0x00, 0x00, 0x00, 0x73, 0x65, 0x71, 0x75,
  0x65, 0x6e, 0x74, 0x69, 0x61, 0x6c, 0x5f, 0x31, 0x2f, 0x64, 0x65, 0x6e,
  0x73, 0x65, 0x5f, 0x31, 0x5f, 0x32, 0x2f, 0x4d, 0x61, 0x74, 0x4d, 0x75,
  0x6c, 0x3b, 0x73, 0x65, 0x71, 0x75, 0x65, 0x6e, 0x74, 0x69, 0x61, 0x6c,
  0x5f, 0x31, 0x2f, 0x64, 0x65, 0x6e, 0x73, 0x65, 0x5f, 0x31, 0x5f, 0x32,
  0x2f, 0x52, 0x65, 0x6c, 0x75, 0x3b, 0x73, 0x65, 0x71, 0x75, 0x65, 0x6e,
  0x74, 0x69, 0x61, 0x6c, 0x5f, 0x31, 0x2f, 0x64, 0x65, 0x6e, 0x73, 0x65,
  0x5f, 0x31, 0x5f, 0x32, 0x2f, 0x42, 0x69, 0x61, 0x73, 0x41, 0x64, 0x64,
  0x00, 0x00, 0x00, 0x00, 0x02, 0x00, 0x00, 0x00, 0x01, 0x00, 0x00, 0x00,
  0x10, 0x00, 0x00, 0x00, 0xb2, 0xfd, 0xff, 0xff, 0x00, 0x00, 0x00, 0x01,
  0x14, 0x00, 0x00, 0x00, 0x1c, 0x00, 0x00, 0x00, 0x1c, 0x00, 0x00, 0x00,
  0x08, 0x00, 0x00, 0x00, 0x6c, 0x00, 0x00, 0x00, 0x02, 0x00, 0x00, 0x00,
  0xff, 0xff, 0xff, 0xff, 0x10, 0x00, 0x00, 0x00, 0x9c, 0xfd, 0xff, 0xff,
  0x52, 0x00, 0x00, 0x00, 0x73, 0x65, 0x71, 0x75, 0x65, 0x6e, 0x74, 0x69,
  0x61, 0x6c, 0x5f, 0x31, 0x2f, 0x64, 0x65, 0x6e, 0x73, 0x65, 0x5f, 0x31,
  0x2f, 0x4d, 0x61, 0x74, 0x4d, 0x75, 0x6c, 0x3b, 0x73, 0x65, 0x71, 0x75,
  0x65, 0x6e, 0x74, 0x69, 0x61, 0x6c, 0x5f, 0x31, 0x2f, 0x64, 0x65, 0x6e,
  0x73, 0x65, 0x5f, 0x31, 0x2f, 0x52, 0x65, 0x6c, 0x75, 0x3b, 0x73, 0x65,
  0x71, 0x75, 0x65, 0x6e, 0x74, 0x69, 0x61, 0x6c, 0x5f, 0x31, 0x2f, 0x64,
  0x65, 0x6e, 0x73, 0x65, 0x5f, 0x31, 0x2f, 0x42, 0x69, 0x61, 0x73, 0x41,
  0x64, 0x64, 0x00, 0x00, 0x02, 0x00, 0x00, 0x00, 0x01, 0x00, 0x00, 0x00,
  0x10, 0x00, 0x00, 0x00, 0x96, 0xfe, 0xff, 0xff, 0x00, 0x00, 0x00, 0x01,
  0x10, 0x00, 0x00, 0x00, 0x10, 0x00, 0x00, 0x00, 0x07, 0x00, 0x00, 0x00,
  0x28, 0x00, 0x00, 0x00, 0x1c, 0xfe, 0xff, 0xff, 0x1b, 0x00, 0x00, 0x00,
  0x73, 0x65, 0x71, 0x75, 0x65, 0x6e, 0x74, 0x69, 0x61, 0x6c, 0x5f, 0x31,
  0x2f, 0x64, 0x65, 0x6e, 0x73, 0x65, 0x5f, 0x31, 0x2f, 0x4d, 0x61, 0x74,
  0x4d, 0x75, 0x6c, 0x00, 0x02, 0x00, 0x00, 0x00, 0x10, 0x00, 0x00, 0x00,
  0x01, 0x00, 0x00, 0x00, 0xde, 0xfe, 0xff, 0xff, 0x00, 0x00, 0x00, 0x01,
  0x10, 0x00, 0x00, 0x00, 0x10, 0x00, 0x00, 0x00, 0x06, 0x00, 0x00, 0x00,
  0x38, 0x00, 0x00, 0x00, 0x64, 0xfe, 0xff, 0xff, 0x2b, 0x00, 0x00, 0x00,
  0x73, 0x65, 0x71, 0x75, 0x65, 0x6e, 0x74, 0x69, 0x61, 0x6c, 0x5f, 0x31,
  0x2f, 0x64, 0x65, 0x6e, 0x73, 0x65, 0x5f, 0x31, 0x2f, 0x42, 0x69, 0x61,
  0x73, 0x41, 0x64, 0x64, 0x2f, 0x52, 0x65, 0x61, 0x64, 0x56, 0x61, 0x72,
  0x69, 0x61, 0x62, 0x6c, 0x65, 0x4f, 0x70, 0x00, 0x01, 0x00, 0x00, 0x00,
  0x10, 0x00, 0x00, 0x00, 0x32, 0xff, 0xff, 0xff, 0x00, 0x00, 0x00, 0x01,
  0x10, 0x00, 0x00, 0x00, 0x10, 0x00, 0x00, 0x00, 0x05, 0x00, 0x00, 0x00,
  0x3c, 0x00, 0x00, 0x00, 0xb8, 0xfe, 0xff, 0xff, 0x2d, 0x00, 0x00, 0x00,
  0x73, 0x65, 0x71, 0x75, 0x65, 0x6e, 0x74, 0x69, 0x61, 0x6c, 0x5f, 0x31,
  0x2f, 0x64, 0x65, 0x6e, 0x73, 0x65, 0x5f, 0x31, 0x5f, 0x32, 0x2f, 0x42,
  0x69, 0x61, 0x73, 0x41, 0x64, 0x64, 0x2f, 0x52, 0x65, 0x61, 0x64, 0x56,
  0x61, 0x72, 0x69, 0x61, 0x62, 0x6c, 0x65, 0x4f, 0x70, 0x00, 0x00, 0x00,
  0x01, 0x00, 0x00, 0x00, 0x10, 0x00, 0x00, 0x00, 0x8a, 0xff, 0xff, 0xff,
  0x00, 0x00, 0x00, 0x01, 0x10, 0x00, 0x00, 0x00, 0x10, 0x00, 0x00, 0x00,
  0x04, 0x00, 0x00, 0x00, 0x1c, 0x00, 0x00, 0x00, 0x10, 0xff, 0xff, 0xff,
  0x0f, 0x00, 0x00, 0x00, 0x61, 0x72, 0x69, 0x74, 0x68, 0x2e, 0x63, 0x6f,
  0x6e, 0x73, 0x74, 0x61, 0x6e, 0x74, 0x32, 0x00, 0x01, 0x00, 0x00, 0x00,
  0x01, 0x00, 0x00, 0x00, 0xc2, 0xff, 0xff, 0xff, 0x00, 0x00, 0x00, 0x01,
  0x10, 0x00, 0x00, 0x00, 0x10, 0x00, 0x00, 0x00, 0x03, 0x00, 0x00, 0x00,
  0x1c, 0x00, 0x00, 0x00, 0x48, 0xff, 0xff, 0xff, 0x0f, 0x00, 0x00, 0x00,
  0x61, 0x72, 0x69, 0x74, 0x68, 0x2e, 0x63, 0x6f, 0x6e, 0x73, 0x74, 0x61,
  0x6e, 0x74, 0x31, 0x00, 0x02, 0x00, 0x00, 0x00, 0x10, 0x00, 0x00, 0x00,
  0x10, 0x00, 0x00, 0x00, 0x00, 0x00, 0x16, 0x00, 0x18, 0x00, 0x14, 0x00,
  0x00, 0x00, 0x10, 0x00, 0x0c, 0x00, 0x08, 0x00, 0x00, 0x00, 0x00, 0x00,
  0x00, 0x00, 0x07, 0x00, 0x16, 0x00, 0x00, 0x00, 0x00, 0x00, 0x00, 0x01,
  0x10, 0x00, 0x00, 0x00, 0x10, 0x00, 0x00, 0x00, 0x02, 0x00, 0x00, 0x00,
  0x1c, 0x00, 0x00, 0x00, 0x9c, 0xff, 0xff, 0xff, 0x0e, 0x00, 0x00, 0x00,
  0x61, 0x72, 0x69, 0x74, 0x68, 0x2e, 0x63, 0x6f, 0x6e, 0x73, 0x74, 0x61,
  0x6e, 0x74, 0x00, 0x00, 0x02, 0x00, 0x00, 0x00, 0x01, 0x00, 0x00, 0x00,
  0x10, 0x00, 0x00, 0x00, 0x00, 0x00, 0x16, 0x00, 0x1c, 0x00, 0x18, 0x00,
  0x00, 0x00, 0x14, 0x00, 0x10, 0x00, 0x0c, 0x00, 0x00, 0x00, 0x00, 0x00,
  0x08, 0x00, 0x07, 0x00, 0x16, 0x00, 0x00, 0x00, 0x00, 0x00, 0x00, 0x01,
  0x14, 0x00, 0x00, 0x00, 0x20, 0x00, 0x00, 0x00, 0x20, 0x00, 0x00, 0x00,
  0x01, 0x00, 0x00, 0x00, 0x3c, 0x00, 0x00, 0x00, 0x02, 0x00, 0x00, 0x00,
  0xff, 0xff, 0xff, 0xff, 0x01, 0x00, 0x00, 0x00, 0x04, 0x00, 0x04, 0x00,
  0x04, 0x00, 0x00, 0x00, 0x1e, 0x00, 0x00, 0x00, 0x73, 0x65, 0x72, 0x76,
  0x69, 0x6e, 0x67, 0x5f, 0x64, 0x65, 0x66, 0x61, 0x75, 0x6c, 0x74, 0x5f,
  0x6b, 0x65, 0x72, 0x61, 0x73, 0x5f, 0x74, 0x65, 0x6e, 0x73, 0x6f, 0x72,
  0x3a, 0x30, 0x00, 0x00, 0x02, 0x00, 0x00, 0x00, 0x01, 0x00, 0x00, 0x00,
  0x01, 0x00, 0x00, 0x00, 0x01, 0x00, 0x00, 0x00, 0x10, 0x00, 0x00, 0x00,
  0x0c, 0x00, 0x0c, 0x00, 0x0b, 0x00, 0x00, 0x00, 0x00, 0x00, 0x04, 0x00,
  0x0c, 0x00, 0x00, 0x00, 0x09, 0x00, 0x00, 0x00, 0x00, 0x00, 0x00, 0x09
 
};

#endif //SINE_MODEL_H