/**
  ******************************************************************************
  * @file    imu_model_data_params.c
  * @author  AST Embedded Analytics Research Platform
  * @date    Tue Apr  8 15:10:10 2025
  * @brief   AI Tool Automatic Code Generator for Embedded NN computing
  ******************************************************************************
  * Copyright (c) 2025 STMicroelectronics.
  * All rights reserved.
  *
  * This software is licensed under terms that can be found in the LICENSE file
  * in the root directory of this software component.
  * If no LICENSE file comes with this software, it is provided AS-IS.
  ******************************************************************************
  */

#include "imu_model_data_params.h"


/**  Activations Section  ****************************************************/
ai_handle g_imu_model_activations_table[1 + 2] = {
  AI_HANDLE_PTR(AI_MAGIC_MARKER),
  AI_HANDLE_PTR(NULL),
  AI_HANDLE_PTR(AI_MAGIC_MARKER),
};




/**  Weights Section  ********************************************************/
AI_ALIGNED(32)
const ai_u64 s_imu_model_weights_array_u64[1178] = {
  0x7f7b7f29c1818132U, 0x7f918153b7817feaU, 0xf77f7f0981047fa5U, 0x813c8111a87f7a81U,
  0xfc81fc7f81228130U, 0x81ac7fe17fe57feaU, 0x810c81206b817f75U, 0x7febe17f81418105U,
  0x7f04687f7fe0bf81U, 0x4b7f4981f87f7f37U, 0x7f0a7fe06b81d87fU, 0x81f481767f110381U,
  0x787fac811d81257fU, 0x7ff57ff60c7fdf7fU, 0x7f5fc981d48181c7U, 0x17817f957f89c481U,
  0x11818a8181d86a7fU, 0x6f81812d7f3f81e6U, 0x7f0a7f087ff38107U, 0x7fe981097ff77f58U,
  0xec7f6281f47f7f79U, 0xe57f7f108102811fU, 0x2d7f7f94417f7fc4U, 0x81c781837fec7f06U,
  0xd081811ee67f7f04U, 0x7ffb2f817f147f7fU, 0xf57f7fe67f8c81eeU, 0x7ff47f7cbe7f7fd7U,
  0x38181a981157f6bU, 0xb77ffe7fee7faa81U, 0x67f7f2281197f02U, 0x7fc4017f7f06eb7fU,
  0xfffffe2cfffff492U, 0x81cfffffd47U, 0x3d4fffffae8U, 0x6d0000021b0U,
  0xfffff4a70000182fU, 0x13bcfffff9a2U, 0xfffff88e000015e3U, 0xfffffe36fffffa23U,
  0xfffff54ffffff571U, 0xf9400001d36U, 0xfffffc0500001c31U, 0x1104000002bbU,
  0x122200000850U, 0xfffff32efffff5f3U, 0xfffffe40fffff31dU, 0x1bcd00000e07U,
  0x1d25000002a4U, 0xfffffb7a00000a64U, 0x145fffffffcaU, 0xffffb8c300000dbeU,
  0xfffffe0500000f4fU, 0xfffff9d8fffffd9fU, 0xfffffa58000010ceU, 0xfffff69200000f45U,
  0xfffffe4800001fdaU, 0x4c600000692U, 0x6e00000e09U, 0xfffffbf4fffffaa9U,
  0xfffff7c000000ef9U, 0x2946fffffc8fU, 0x16bf0000053aU, 0x15e900000dedU,
  0xfffff5ec00002857U, 0x132500000636U, 0xf300001326U, 0x261dfffff7e2U,
  0x4e8fffffd4aU, 0xfffffaa3fffffa34U, 0xfffff9eb00002925U, 0x1e17fffff60fU,
  0x118000000fc4U, 0x109d00003c49U, 0xfffff6affffffca8U, 0xe1efffffb37U,
  0x231100001f8fU, 0x17c00000b67U, 0xfffffe74fffffb50U, 0x472c000009c1U,
  0x103ffffff9b6U, 0x74ffffff76eU, 0xfffffbcc00002eebU, 0xfffff950fffffce2U,
  0x2636fffffa32U, 0xa5f000004d0U, 0x12d300001df2U, 0xfffff91d00000510U,
  0xfffff95e000009c8U, 0x116700000b52U, 0x10270000044eU, 0x11fb00001889U,
  0xfffff420fffff9daU, 0xbd7ffffff1eU, 0xfffff949000003fdU, 0x205d00001364U,
  0x41ba43083ef9d035U, 0xf59dd0d1ee35206U, 0xe00e09d0ac0cea68U, 0x1eca1e7f64242863U,
  0xd63fb517283c25c9U, 0x51fc3e1b48e6cd04U, 0x4d2e4ef3ebdc561aU, 0x10f3d7f5a724080cU,
  0x3c4b04cc20d05ec6U, 0xd5566e467b04634dU, 0xf4ec722f172b0cfeU, 0xb64af259234faaefU,
  0x22e872e8ab68cd18U, 0xfe8e227b050d216U, 0xfafee81baafc18f3U, 0xdd80c38f859635eU,
  0x2ed726d7bacbf801U, 0xbbe48d04308d9229U, 0x49e1b3311c33b5f0U, 0x2c16edf8cbacdb14U,
  0xdaf84ccb8ad5262eU, 0xe409ed5584edcbf2U, 0x8f18ff23ad47210eU, 0xf83016025507ce48U,
  0xf588e647dd3ed337U, 0x31a3bd4f82f5e5d4U, 0xfaaeaee8f7e9171cU, 0xa3b17a0e8352033U,
  0xa3c6870ff3c417a5U, 0xc4c1091353130baaU, 0x1d5cfb07cd2ea8b4U, 0x5c6f81e238b79ae4U,
  0xf43afb124cccfecaU, 0xdbbb460ad5b241U, 0xe50b09674d4bb995U, 0x3d06d2bcf1a9360bU,
  0xf82e05c79e3e1a08U, 0xb009dd049cc933ffU, 0x180ee7f410332426U, 0x332ce40042f50bf2U,
  0xdda1cd40001c824U, 0x50d3032ec790df16U, 0x44cedd1924583efaU, 0x41fedefa3006f537U,
  0xb11ed74b35143181U, 0xaef3e721ec3528fdU, 0x80930ebee0bb7dbU, 0x5e268d1340020bf1U,
  0xddfd1508a6e42633U, 0x3c3556d3c8ca24abU, 0xdcdee0b4e9d32512U, 0xdc48f4fe0247ea9dU,
  0xcccbc8cef3c7a3feU, 0xe11a0636f0ee221aU, 0xc91cfbe2e317dbecU, 0xfba19e03d42ceb1fU,
  0x20201a054916ccU, 0x8133e7a90bc6c92eU, 0x3dc54b4a15010a18U, 0x3118d725efaacccfU,
  0x7dc24a811421734U, 0xd7da3dd701dbd242U, 0xe81c020a24393cc0U, 0xa903e0f8efde1319U,
  0x1a4129b4101e1a15U, 0x2cbc6280ee3b637U, 0x12e0ac142fe0bdc5U, 0xfe701c18a0137e6U,
  0xd331dc89bf4e4d5U, 0xb62a105a8ee7c63eU, 0xe89513044adc5015U, 0xe62220f929483a31U,
  0x2518d0db150b0af9U, 0x5ab689509688e212U, 0x549cc09f300139e6U, 0xdcdcefe939d84058U,
  0xa3f7f902cf292481U, 0x9ed049535be6f4b1U, 0x8594c1c54b62027U, 0xfb1fca02f1a9c6b5U,
  0x68d2edde69fac3ccU, 0xfbf7b6f43ee0ae27U, 0x13542021f80703a6U, 0x5c30e191d80c4111U,
  0xda66373fdd537f0aU, 0xdc11dd46e12c2cf2U, 0x201c1fb00efe254U, 0x27646ff24742bf30U,
  0x14cb03d752c10245U, 0x76daef6448d3eebaU, 0xdff9b1041e2d47fcU, 0x330d0ed03c536166U,
  0xf2ffd9191ed953dbU, 0x3239503d3f0c65f8U, 0x3044d51923c4c92bU, 0x7044df2943d8f1f1U,
  0xd6e8fd9ee9e3becfU, 0x6089c310be4aa18U, 0xab7b757605fac03U, 0x43d221b0d9e63457U,
  0x25f82618c652e41bU, 0xa21fe6e59fcefe47U, 0xa08d07492dfd0133U, 0x72e3ee3762f5dd2aU,
  0x7402fcf0f0f2a564U, 0x40a186f0b3dd2c43U, 0x19c013b931ed4a57U, 0x7fe4b083171c5d37U,
  0x88aebc3230e7f8b3U, 0x88dc133b163b7dc4U, 0xe64ce1de16f5b509U, 0xe5e8a6fafebe11caU,
  0x4fe72041fd510a12U, 0xb2c00413fa3f164cU, 0xc11e184a10f91a13U, 0x43191bdcfbd0e040U,
  0x163bfa1a2b55ebc9U, 0xc6aeefdb3af01022U, 0xb2e170c100d04f8U, 0x204d311cde1e0dc8U,
  0xe6d12b81c6fffcfeU, 0x4b1008e9ee0e17d3U, 0xaf31dcec2c5c525U, 0x94f4006233dd1e0fU,
  0xf2f95035fcfccc39U, 0x4b160323e604da21U, 0xf6ddb3c4c8fbf04dU, 0xded155b6f110095eU,
  0xda1f31ff06bde2b7U, 0xdbffdcd9f500be37U, 0x40e10663fe1202deU, 0x493ab5a2b50f33f0U,
  0xf2e427cf92ba412dU, 0x1108dcfab1d8b727U, 0xa9b3d5ec31241b43U, 0x28224ced6ffceaddU,
  0xfa0c2e747f2ef25U, 0x5caaa4e7dfe701e9U, 0x1d10cfe8375b15e4U, 0x44dcadb834013dd9U,
  0x9cf1e2f7cef9ee81U, 0x98d50c6ff3f53fafU, 0x214055213f37d3cdU, 0xfd529dfb18eeab02U,
  0x53ea3c91a01edc4U, 0x9c1033c0bfa8ac3eU, 0x9fbe5e2553164825U, 0x4e67c6b813f6223eU,
  0x2a493362a7e48c21U, 0x111cf58188ddb296U, 0xa5112a11d8a1528fU, 0xac08d53f86cae2bfU,
  0xfabf4e10cba7b43aU, 0x1ce6d2c9ae9fab2eU, 0x8fb202331d96e391U, 0xacd25ba8cdffc1e7U,
  0x46cc1cc4a69e4c24U, 0x2f1de231bb16f5c6U, 0xf6e6bcd7c8bb1899U, 0x1e5cefd018dea9f7U,
  0x2d07cc2df812cee0U, 0xbcf1f96c3df6dff4U, 0x325e4c325842b616U, 0x6dff3ba6a2ce2a5cU,
  0x5fbff6b201ff92bU, 0xe5c6451aea11c9fbU, 0xfa5ec146f1d53340U, 0x1b5646233eeaceecU,
  0x43bc67021de8d6fcU, 0xfe0b3625421537bdU, 0x310dac2e0134191bU, 0xfbf6591de0503532U,
  0x2ada2a2a26cbef00U, 0xd940297f0535fdf0U, 0x4f900f03532e516U, 0x1b4022da2652c7ebU,
  0x2f45e0e12baad9a3U, 0xc0b3f709039c08cdU, 0xcf8d40d3d6eadd2U, 0xecddc1dbd1e03bddU,
  0xbd4841f6bb3f0d53U, 0xd5ecf4dcb18ef766U, 0xf9040c09bd2bd8f3U, 0xef2d231e2b3f0e0fU,
  0x2501dd315111bd2bU, 0x20a206f08d05d8beU, 0xe6c1b7c9373c2203U, 0x6acec6a211c3f90eU,
  0x813ae25708a0dd8eU, 0xbbf14b3734f144f8U, 0x255e2ee7de3403f5U, 0xe02cc0382782b7e0U,
  0x396c519093e43b93U, 0xe7b7da049535ba17U, 0x41cdfdd92911b63cU, 0x255094d6ee2c21ceU,
  0x60cb18523d414ccbU, 0xe1c986b3e1b3c5b2U, 0x880c66a998d143bdU, 0x87bed5a45d363241U,
  0x36ad19f2eec0c7d7U, 0x3feae13d082d8c44U, 0x71fc0449120b5ab6U, 0x81bf2329eb5e1cdeU,
  0x501de65037d55d30U, 0x9853ab3ca5b9a204U, 0x74053ccb4ca509cU, 0x25e1ee96ba029be7U,
  0x2db1703bf4cff55U, 0x4913cc2be01424d5U, 0x82939cdb9eb2529U, 0xd2dc006b356920fcU,
  0x163ddf5068d6222cU, 0x23264eed730101beU, 0x20301e143ff5da1dU, 0xc21efbdbe4f1322bU,
  0xbf0835142b0464e4U, 0xd707ecce7f37161fU, 0xe4736830e3c2061eU, 0x2e06167f3d17a8f9U,
  0x58d9fb15cc49394bU, 0x6541e0c62209032cU, 0xd10c1711d60e5be2U, 0xf61c5fd93c3d2af4U,
  0x963d0718a0f7280dU, 0xea512dc30df8218bU, 0x91cf7c61fda2c5bU, 0x87df465c39341ad7U,
  0xdb19ff20301f9347U, 0x2aff25e22edf000fU, 0x15c7fe07b61d07e6U, 0xf2afdd00fcf9faf3U,
  0xf708e434f80901e6U, 0x9a4efbc72ad0fb1aU, 0x2ddb5c00da04fbe8U, 0xf017ee08ffb6d8cbU,
  0xe91edf00034b23e0U, 0xd4e5f0b5e1dec0feU, 0x35112843052a43d4U, 0x8106051721eb0233U,
  0x37ecca0a0d252203U, 0xfd1115322e30f441U, 0x183833333ae509c9U, 0x7dee0fb6030e490eU,
  0x2bfc12f9dcf96a0bU, 0x4d527f82637391fU, 0xeb3412ee02de1819U, 0xd5c4f1851040606U,
  0x3df8f20bf7ced221U, 0x3bfd2c39f72950fcU, 0x1ce5bd14ff4635faU, 0x15d92c2a1b2b0462U,
  0x1a210c271ef40f17U, 0x3149dc7f15311fc2U, 0xdefbe1df1b07f652U, 0x493645de3716c32aU,
  0xe958fa1103186d01U, 0x335628f343236204U, 0x53331e9e4804741aU, 0x3ce6df4d311abf07U,
  0x42deb31edfd5c04eU, 0x185aa923dd2b3956U, 0x73637e5b3e70a17U, 0x3c2a1b4bf93272f8U,
  0xfe262978c80cf0bcU, 0x2003cde515090d2bU, 0x5535357e0f2e0b4bU, 0xf83322b1e31e25aaU,
  0x1d0cc9cbee0d290cU, 0x43ba34d834d3dd14U, 0x29d43771366e2fd3U, 0xb05cb110f0307fc8U,
  0xb607279a400a4941U, 0xef1fd0d32e07fd20U, 0x614cf4afa6106a0U, 0xd21a52acd1cf02a2U,
  0x5025ca9795dc24ddU, 0x33278fd0ad9ce25bU, 0x2fa2c0e1bd8b351U, 0x15a04440d8cc4673U,
  0x47e7367a5f631347U, 0xfb2abb1c92132509U, 0x6e1df70205535213U, 0x30429b8afe3cef38U,
  0xb327ade26e327481U, 0xecfce91662da2523U, 0x461b4cd445eeebf6U, 0x167687f45cefb0e7U,
  0xb2ef270dd9f52e02U, 0x48121dd919c914e3U, 0x14f8dd81ddf6280fU, 0xc9ee4f082735b7c1U,
  0xfe100c120fd4b340U, 0xfd2ec52712cd0e33U, 0xe0f1ea23b40c3607U, 0xe8c5aa16ec504e1fU,
  0xdd2c193d1f4b5afbU, 0xc56126e4cb051043U, 0xfc81e26e50be90dU, 0x1409002a02b604a1U,
  0xbf304000344d60cU, 0x16b14fcdf80ec816U, 0x3ebe1814ca511dc8U, 0xead3041b0af83d12U,
  0xe2bb1d132d5d1219U, 0xbd01eff8c9524537U, 0xc3e5360b24a2bc2bU, 0x2ec7faf8edc9d634U,
  0xfbcc22334eef10b0U, 0x22035df9f5f2160cU, 0xfafa3ec53212d9beU, 0xe9511eb436f117d3U,
  0xe5d02481f5f5f3d4U, 0xd0b2153540115fcU, 0xb32d193db903fb20U, 0xedc03d4b1530213fU,
  0x3f010cdd1afba82dU, 0xe9e3db2bca4b2934U, 0xb2d7cbaef2b80429U, 0x3fcb20e1ef3dea59U,
  0x2cbba708ff40bf0fU, 0xa9cced55d4591731U, 0x9b090f22b8ea03e6U, 0xf80c13f8c7292e14U,
  0xd84816fe6b344e09U, 0x2c88490c3d2c19afU, 0x108c7fffb93e9f3U, 0xffd04d84cb2eec2U,
  0x17c052c92c07c945U, 0xf1ed164b3e6709feU, 0xe268bff4fce8ad1aU, 0x90ab495db625da11U,
  0x430820f612ebe816U, 0x265fed41d306ff21U, 0x811ccbb21388bd05U, 0x28bf68c708f9374aU,
  0xe8343207d6d36708U, 0xdfa3f2f71b37131U, 0x67ebece2034b5b61U, 0xfe2952162078f5cfU,
  0x321ed5071c0fa93cU, 0x3d7ae075e7a0ed13U, 0xabe6537b2a370d4bU, 0x5ccaf45c30f3f657U,
  0xe954c84c0a786de3U, 0xc3fafecffb86b347U, 0x5160c1031097a01U, 0x5ffcf5d3fb31254cU,
  0xeb47b142473972a3U, 0xb0c2414e6cef10e9U, 0x1cee7f77692e1cd9U, 0x1255dbdb5dc4db99U,
  0xa9451b289ccae1eaU, 0x177758cddc2b75d4U, 0xde0b3eb65505667fU, 0xb9ed2c482401ce09U,
  0xa9b301eaf2b2a32fU, 0x1a63e10b07b82c0fU, 0x24c026429d474adaU, 0x220f0b3eed412a25U,
  0xe710ad451ff25f0aU, 0xe371e0c924fdc1e2U, 0x6b51c0658f0f5c2U, 0x17e00a354228f408U,
  0x2c2da8a8096dd4deU, 0xedfb1e9a34062661U, 0x20e7d011b4f040e9U, 0xbd4e4345c4214fc3U,
  0x3ae7fccd4ce3ccd1U, 0xfab7e54531e3d0fdU, 0x1707ad6aedec05e9U, 0x361bd0baaae12cf8U,
  0xd24813d6afe24ac4U, 0xfece951fdfee19e4U, 0xf2ca31fce730f233U, 0x40e725065b16fec2U,
  0x4af1df4e50ed36aU, 0x76b3ef14d0e327b7U, 0x19aaf3e9483f0d26U, 0x4a26c4ed214e342aU,
  0x16e30727330de88fU, 0xe84a0e7f29d92ac0U, 0x280748242c181220U, 0x4154d509f512d3eaU,
  0xab2b1d03f0e41256U, 0x35fe2bf229f56adaU, 0x3ad18c8d00b211aU, 0x81fe3258610b0a91U,
  0xe726f3bdfd17d4ebU, 0x3f4324f2dbb63127U, 0xbf1de807ca452007U, 0x29da91f4d0501737U,
  0x8ffb3002c2350afU, 0xb14a0fbfdee1f217U, 0x1bd530f9f80bffdeU, 0x1436d8d0e18df2aaU,
  0xc9daeaf34017d618U, 0xe3c6f4b01b9bac3dU, 0x3ed141ebd3284ad5U, 0x9a3cc33839cc0af5U,
  0xdd00f325c112f011U, 0x1f3b07e5fc2153d7U, 0x441be6b1f02f3d0eU, 0x81df35501f46f8c2U,
  0x410000e0f1bf431U, 0x1d44d42324fbdde1U, 0xe9f11b0b1515dae5U, 0xeae4d2e7f01d1af0U,
  0xdb39dcedf906fdc7U, 0xb13326d2c71d0318U, 0x18ee19eb1607c9e9U, 0xfa14e4ed13fa19b6U,
  0x1c2327c4e93fe714U, 0xaf724f2f8db0707U, 0xf4f62e3206042fdbU, 0xee0fc427d5c92a0dU,
  0xf11624a5ec23e3d3U, 0xfc21a93f3baf88d4U, 0xeac7c4050d5517e9U, 0x3f563fedc0f42430U,
  0xccfbe308c4dce7c7U, 0xb800a457bd9b16cfU, 0xb386ef25f912ef1cU, 0x1226ec296fd8fbf5U,
  0x31a5ec4d06f6ce12U, 0x2a0b32981b5e4b4U, 0xd8d5132d2c4df11eU, 0x30bca99217215056U,
  0x88b7b428d2a6069bU, 0xacfd505141eb4b0cU, 0xd34edfcf53dd162fU, 0x3d52e0f90c0eadc7U,
  0x6225333fe036beaU, 0x6a0a5500d4a103cbU, 0x1816faf37e513114U, 0x3deb15717a180218U,
  0xf9ea5da6ae202d46U, 0x5c4fb1600129350fU, 0x9a02544df966e928U, 0x40b0fdf82f271013U,
  0xbc54cc7647561ce2U, 0x1c13d3e482b4c047U, 0x40c80e2c78285a10U, 0x6c62f115d32bf9dbU,
  0x291a97d667487fdfU, 0x5227acd5fd6ee11U, 0x70f3d66040512b1U, 0x203a87573fb45011U,
  0xe40432df26c4e9c1U, 0x31615d8efabf348U, 0x7bec92c43d8f3caU, 0x7240cdc9e6fed51bU,
  0xc21525cf8e49ea00U, 0x91f8d75781b9c2e9U, 0xa8b34c412db8d151U, 0x30d1ea013df1e10fU,
  0x5ec1d3204be0c02bU, 0x6ce5af4e92bac9f3U, 0xd189ced104f5a48U, 0x642ee4ba1d4a0728U,
  0xdad70d4a06b514b7U, 0x3dd02fe37b54bc8U, 0x25d62ec4e2e70106U, 0x2f3dc5480fb428adU,
  0x34ee9908566e040aU, 0xefb8ed3fe843e46aU, 0xd02e30efffd006c2U, 0xdb803212fe61f09U,
  0xbfeef9776d204328U, 0xe7dc7c326d6713a1U, 0x4078d80eecd6e8dcU, 0x370a17be63f4b78bU,
  0x15f228bc41bcf7f1U, 0x290d79162f685ee3U, 0xa2fc0609012bf5deU, 0xc68bf405d0383a0cU,
  0x12473546f21caa43U, 0x5555cf21c55de00bU, 0x8129eecb2fdff003U, 0x3ed874b7e337bf14U,
  0x1f03fbe50715e8e0U, 0x14eef23f3f3dba4eU, 0xa38f37fff36d0e0U, 0x42eb1dc4f7fe4b0eU,
  0xe24411130b0c481dU, 0xc926f845e40c040cU, 0x4839defd1024ea2eU, 0x4f07530a59dec7deU,
  0xfbea0ce2cd48U, 0x41bfec59f42e01fcU, 0xe706c51f2e0103eeU, 0x11e0432ce93f3b2eU,
  0xbf81833fe05141cU, 0xfd00e37df40807ceU, 0xfd2d0731f5f8df1cU, 0x50e029d5ee1610f6U,
  0x1a3cf8cdc4c26616U, 0x22f9432304b5ee15U, 0x6eeedbb81d4f6bf7U, 0x37385651461ac80bU,
  0xbf270502fcd3d93eU, 0xeff61cf610cf314aU, 0xe3153305372aee4aU, 0x67bee6210a7ff008U,
  0x2e16e277333d5edaU, 0xc853d8df0000d54eU, 0x6a28f43355e81929U, 0x1858e51034e85ad6U,
  0xfb161d3174182402U, 0xa3f0083f5f26c843U, 0x6ed01060ee78edb5U, 0xe5fb6f6ddc729deU,
  0xc134dfc9ead2fec9U, 0xd5ddd223d2dbd3ebU, 0x3edce7f16f7c1b9U, 0x304e18f4e71705f2U,
  0x3c2d410504fae0e5U, 0xc6e5e82a979fac67U, 0x9305ca31f0e9e64fU, 0x811da3264280af1U,
  0xf0cdf4191adde531U, 0x18e6b81fe9e4b62dU, 0x15d2d8e11329e528U, 0x2f5b5c6e7013e00U,
  0xdedbd70009c4dca9U, 0xf8e63e19eac021ccU, 0x3f35d1195a0af810U, 0x1bee8ecf33a6bfefU,
  0x405857bee9459ddfU, 0x32b8ff879f513facU, 0xa7c6d5c2aaaae906U, 0xdbb7af51481c9735U,
  0x5461a70995aa2cf1U, 0xb7b75157b5d029acU, 0x3a1529a5c274005cU, 0xf33bf79d159a5116U,
  0x1f92736dfbd5a31U, 0xe7b8fce50329c555U, 0xa92eca3e3507d814U, 0x9f1d8dcca824d8bU,
  0x10ea5ba802fb1aa9U, 0x104729602efbb79cU, 0xf962d9a0ce9fe6a1U, 0x2d5b81c10d576789U,
  0xedd4d4d6cac9ecccU, 0xf2eec236f8baf8fcU, 0xedfde4f3e1fbc00U, 0x4442d2948de02f35U,
  0xe9271aeaad2b48f0U, 0xf80d9e34f813d637U, 0xb5c20a043d20f95cU, 0x381c28d020f5b41fU,
  0x1dbc0af94120f4f5U, 0x18b4922b949d1604U, 0x1db1cff2cef031e7U, 0x44fcfae4001046d5U,
  0x9cc8c61c21f43cecU, 0xb2cf1567f8064612U, 0xdf572afd1918b322U, 0xe44581fae1bdd008U,
  0x33213b020f00ffeeU, 0x793ffe1065d042ceU, 0x381ef727da304d2fU, 0xee650bdb2af0db10U,
  0xf0572e14a2e9ab6aU, 0x170c04ecafacfd4bU, 0x19c1241cad1a3945U, 0xf9cd1d394e143052U,
  0x1f17dc33225565e5U, 0x1f5edf1c8197b123U, 0x69b73f445e392c3eU, 0xbe1b900fa2717e1U,
  0xdd04f4e52b5737adU, 0xc100573353bb4651U, 0xc6bef241844dae2U, 0x260d4f2f9fbdd88U,
  0xca4934b0f613d6d8U, 0xe1c7f0f709e5fd3fU, 0x11d8955f0e35e3efU, 0x24fe31edfcb4ed0cU,
  0x4f429e7d01533d9U, 0xf41ee255ef9eef1aU, 0xaab2e8f4d6e505ffU, 0x54ec02d113dfdd3cU,
  0xd1533ccfcd90839U, 0x3fb39f23d4981b2aU, 0x24fce0d521523638U, 0x2bcbbad2f0cd14eeU,
  0xdbabd4f6fddf378fU, 0xb923ee65f425f8e4U, 0x31f6010c3efad435U, 0x3dd881182727d091U,
  0x3b85d3113155a2e3U, 0xdcc4e1271aee1c40U, 0xac14273fd0d511ecU, 0x48f4c5ce06fe37ebU,
  0xea0fd32951ee0db9U, 0xcd865c31044fedf9U, 0xa06f5deeece3216U, 0xe83b39d025e2d681U,
  0xf4050dc0eea9d23dU, 0x1120729ff48edffU, 0xfdf72426bce4fdf8U, 0xd3c519500945f24aU,
  0x551e33291ff70e13U, 0x484aa213ef3932cdU, 0x8a11188bcd9ff32eU, 0x1cd84810ff1cdcf8U,
  0x1be8f3a9f0d2dab7U, 0x2614fced58cbf4f7U, 0xd011be95932aef3U, 0x5de9c5b8ade329b0U,
  0x4437638ceaf2e44bU, 0xcd0cd0179ea83463U, 0x1f03d4d131e1e56U, 0x551e28d8002e0714U,
  0x1924f440230ee1f5U, 0xd7ccf7568dd61031U, 0x1e83dc2e20e351beU, 0x15cfc3a72901103eU,
  0x8f248ff9f6d1f7efU, 0x98df4b52dabdf9eeU, 0xf95f520016cdcdf5U, 0xc04081ec4fd5be01U,
  0x3f38f5b8443a15d0U, 0xfbb8cb3e2304a13eU, 0xcdd6bd47fbe90706U, 0x6736ff90c4f026f6U,
  0x381b48f388282547U, 0xdb0bfdf5e51afe32U, 0xe7b24f0c5a2fef12U, 0x2e3b643c5d2da707U,
  0x43d906f429cdda4dU, 0x22fb1d14eee056beU, 0x10d8a5d8dc24025aU, 0x401429f2404e141dU,
  0x242aa52040ef481U, 0xa5ef393057e91002U, 0x1a0ffe20fbc0de32U, 0xc5a96c5e4dd1bd4U,
  0xe8ed22cd9cd74630U, 0xfa5408accd2141bcU, 0x3f03e0a5fbeb60fcU, 0x95294e56190ff9caU,
  0x181c1fbdc3adde4bU, 0x59222f2ef81e410cU, 0xcd011b2a03e70609U, 0xe0dfb1f4b60d04ecU,
  0x1708ac3629ec4ff1U, 0x81501afb1eff1731U, 0x39f3faf9e9fdbca3U, 0xed19d3171ccac9d6U,
  0x25f100d6150d0d17U, 0xe5b7e9e7f000c32eU, 0x1af2f422024ef89eU, 0x9224e70310ec66d3U,
  0x25ec1de32c01362eU, 0xd02105205adba832U, 0xe9b8aed70d59ccaaU, 0xf50cebeea0defb1aU,
  0xae45af28f0505d1U, 0x18ff8e0792e3bc1cU, 0xa097db1f04e4e049U, 0x1b0afa4257e64d27U,
  0x500cff608291b16U, 0x1607fc0be4bbf6e1U, 0x42e20012e14f5519U, 0x6056ec9ece040747U,
  0x9a39c1f12ed642e7U, 0xbdd24f3a06053d0cU, 0x3c18ef0a19d6c3f6U, 0xfc1681d315fcd503U,
  0xd91a6adfc702440fU, 0x1f15431b0bb0530cU, 0x542417c023413f7aU, 0xe4685c0f3a1634c1U,
  0xb051ef80538cf71U, 0x330ae33bcbcadd67U, 0xbdbff667074f4d0dU, 0x45cc03481335152dU,
  0xf30bea34464c1ddeU, 0xf95ba819a496d55dU, 0x4ed4fff947584637U, 0x6d2117df1bd34dd0U,
  0xccee02394d5a3eb0U, 0xd8c4353703f2df19U, 0xe11247f64266ee1U, 0xcf5cb060580f30b9U,
  0xc90d1c0ebcded4c2U, 0xebfb0f92bb3b0e9U, 0xf708ff5c013ccdc6U, 0x1934e2dcadf737bdU,
  0x624fff7dedbf424U, 0xc8d30301e211e81eU, 0xfeb901fac6272e1bU, 0x2d191f044603da48U,
  0x4db8cbfb3d24e03dU, 0x2cf0a335f6acedc6U, 0x56dcb8ea010b20f3U, 0xfd320acfd82b0545U,
  0xb430d107dacc5e96U, 0xd1f3e52bfb030214U, 0x20223f3be810c2d6U, 0x1b1881301aafdef2U,
  0xaf3f0ca2c1014b2U, 0xebe21c3b31dcba5dU, 0x1c25407ff242179dU, 0x6244f8e5a1d9f947U,
  0xe21641130453091cU, 0xc817da3e02db241bU, 0x3ef239f6f23ce7f5U, 0x2a2b12db37f912e7U,
  0xf4b60b1139010111U, 0x5faaf845e3c652e4U, 0xfb32accd0e232302U, 0x51e02615d737603bU,
  0xd3d8cf0228fff7a7U, 0xf409de6739463fddU, 0x160830e31721f32cU, 0x513bc8d00a24b6c5U,
  0x17dffe1542061bc9U, 0xfddddf44e7f00d3eU, 0xf72f0568ee20edb9U, 0x7fffd909bdddf646U,
  0xec3e141d2c2b4aedU, 0xfd81b1823f0dc0aU, 0xed3ee910e91ae21fU, 0xf306440843e5e803U,
  0x4ad71a1502e6e747U, 0x17c80f032d03060aU, 0x35eafed02b240523U, 0x22fd0708f5142c24U,
  0x30e3364aeef5f50cU, 0xfa231d4c121c0503U, 0xfe3ff12815f6de1cU, 0x1820f5261afae90fU,
  0xc8d7e98926fd110cU, 0xcecb14ee5cf90336U, 0xb0e4c475daeec69eU, 0x450705aa97df0adfU,
  0x2320ea0cfc120029U, 0xd22c8703e5d405f2U, 0x8ffe46ce3430d710U, 0x56084720790d34ceU,
  0xf6c7c43035050014U, 0x3ead0c27ee012917U, 0x22b6c9a0580bf436U, 0xd310881ca3453f4U,
  0x85e5ee0854a9e4bbU, 0xbd0fd179301ddc02U, 0x225741c806df1120U, 0x243c85f9ecc101cfU,
  0xd0f55d11fde66216U, 0x1601031e35204d13U, 0x16c721dd47426e7fU, 0x1ee2260204115c4U,
  0x1a322bd9cd15021fU, 0x775620331705e551U, 0xc18e63e052ef3e6U, 0xf9c7cc03f13f15eaU,
  0x1e2b26302858531aU, 0xc05ae6f4ed0e1b46U, 0x501c252d1df5f2deU, 0x5167d4be04d23400U,
  0xd73abf0a357935dfU, 0xc3abf8d7fd1cef13U, 0x40ea511b603e3ffbU, 0xf114106309fb0ce2U,
  0x423bdb1cb49717abU, 0x8af3bf87b0c2d592U, 0xfe9b082f4e143a4U, 0x20d7e7af0cd9f1baU,
  0x9ae7ce0230d1c458U, 0x5981a2861a9c49afU, 0x55d3f3bf514932b4U, 0x5c4b349a04b9af04U,
  0xd007131aa7565e53U, 0x8de5be33a966da9eU, 0xc3ec960089f3c0d2U, 0xf98e4bf7e221a9f7U,
  0xd46016de458d9abeU, 0xbddf46b0e8facbf1U, 0x4d2bb445fa8de5faU, 0xf54bf4f0e5f9585aU,
  0xf3ccbb52e72ea6deU, 0xce060021da3f1afdU, 0xb8fbfe0ee4e903ffU, 0x5f7dad4e8fc1e38U,
  0xe718160c3a1301ddU, 0xdc9c1c052f3901c3U, 0xc1f07fcfff43713U, 0xd6f322e51ffa81bdU,
  0xf4ff1ac0f7c1e300U, 0x2bdd4df7162607c6U, 0xbf0b0304d81f0315U, 0xf4904a3d0d1919f6U,
  0x5f0a021ae3f0054cU, 0x4226e81712481ad8U, 0xc2de0eaa10b2f9ecU, 0x250e3cccd022fb38U,
  0x1e6c4637d0c34b70U, 0x470122dfc806f7ccU, 0x3ded36c34f185638U, 0xb3fd2d651f4f14fbU,
  0xbcfa2cc4d608fe3cU, 0xee725f90e3ef2e4U, 0xc92703e4c93813daU, 0x3fd42a24e71f12e2U,
  0xf0f4d1fc4b322c42U, 0x2256e72cd206f1f4U, 0x8281a55e44c4ee1U, 0x354d8dd40f2ee0aU,
  0xe413ea171723f1dfU, 0xeb8bec2f0b22f7f8U, 0xefdde22e503a07cdU, 0xbcefcf0ce30a7ff2U,
  0xf6e018f115dcc17fU, 0xf164ffdd671623a3U, 0xb9e3f0aca1cb5b0eU, 0x996bcd0cf9d6ff47U,
  0xb4e3a5de41ec45cfU, 0xdf4fa3470a072ed3U, 0x353ad5f9eddc273eU, 0x5d9a4c98a34f4350U,
  0x32d2e8baa93ed6c6U, 0xe50cc1ca03f2f7e8U, 0x5d4238f91fcb30dcU, 0x565d1bd1d1fd712fU,
  0xa83bc6e70cffcf42U, 0xb216ea3de752f0cbU, 0x5ef4c699f002f900U, 0x315399b6e53e7951U,
  0x3aaa20c2f49ece0U, 0xd2e3cef33614ccf7U, 0xdefa0f42dace0126U, 0x4a1c002fe17ed41U,
  0x23431a3a18ef39d4U, 0xfa893033f51f16c4U, 0x2b1f02b1eea82333U, 0xeafc4cbd2a9db09bU,
  0x3ebf1089e690e42bU, 0x392221e5372b46deU, 0xf9fddfe8f842fb4aU, 0x6d24a18d0320ffeU,
  0xfaee413dd9c5d62cU, 0x26d15126443ce1U, 0xcb0df6a9fa812018U, 0x32dc0bba2246ec2eU,
  0x371d1edf12e932d4U, 0x15e5eb2b14dda808U, 0x18421f7f0903ddfbU, 0x7bfdc8a2c8c81751U,
  0x3f050b1bde3b5bddU, 0xee271b03d6303f18U, 0x16eddbe642f2d639U, 0x3530f1fa7228bee1U,
  0x5ac0483d17d4cd2dU, 0x730d215016ee4be2U, 0x2f22f3d75116f6f2U, 0x9152315081e102eU,
  0x30dafe3fefbff532U, 0xe9510868ee2337c1U, 0x1f134f1c3ff60d51U, 0x6809f3eae43613e6U,
  0x314757e5fedf693eU, 0xf8fd103af6c5f8c7U, 0xf7caaaf6023700f0U, 0x2a4535f9e0f1fcb2U,
  0xa2864b1c3d8e94fU, 0x6e2075cd4e7e148U, 0xdf1df4390f45f1f4U, 0x4aff4742dee3227fU,
  0xf719ec31e1ff0f00U, 0xc3bd8efebea3f2e6U, 0x62b2292770ff2105U, 0x7de41588382a35e6U,
  0xb3d9db50472621a4U, 0xd1ff4cff6418363cU, 0xee446c5a46513abdU, 0x36e78bdf490e1e8eU,
  0x1354fe2a0120222fU, 0x4021ccf05d05d1dU, 0x79e6b0f956db7230U, 0x1a16416c67f708e1U,
  0xb540ed2abcc2e441U, 0x1c2c166c0ba9fb35U, 0x22a8561608673500U, 0xdfc715e10c45e27fU,
  0x4c72337358f01a1cU, 0xb561ec0cad18ef38U, 0x60a7173000223501U, 0x666021d0fef01b0fU,
  0x1a431f472cea18b2U, 0xbfcd4fb11cd7c03cU, 0x6b44400f461d6836U, 0xbf06f5f11ae8ea0aU,
  0xe55641f6f8f5fdadU, 0x1ffdbc122900c2c7U, 0x1ad5d7f8f7e8f8c2U, 0xe38fb96a6002dffU,
  0xf5ed1884e63b0822U, 0xb249224cad9c045U, 0x109ab961e95af047U, 0xd82f0ed0fee30be6U,
  0x17b0d4fc4012a045U, 0x1f81cdd2d8e220e3U, 0x438d83b3734c2b40U, 0x343ef011421fe20U,
  0x99308606089337ceU, 0x432db12df054814U, 0x24465fec2b13e19dU, 0x3439f0f3ef018baeU,
  0x22cfc2122c47ffe7U, 0x17080e00e03410efU, 0xcbfc1a2dce00e7ddU, 0x34c40ee617cd30fbU,
  0x51d200e45f3420aU, 0xf3df5dcd345725f1U, 0x5b48d9070ceb1a0dU, 0x151d1cd112e5f8edU,
  0xe6c6409cdcc9ba16U, 0x22fe1b00245217ffU, 0xcefad9c3cddee146U, 0xad901323fc4415f5U,
  0xa1d08dec21bdb1dU, 0x1740bf2cfe3b13c0U, 0xf2dfe5d5f9812220U, 0xf5dd110d0a241803U,
  0x46810e103054c41fU, 0x1c1af3d8b92a3d20U, 0xa24106f3d4dcf6cbU, 0x1b1cc22a2a0a45f6U,
  0xcdf2ce1c4d2c09f9U, 0xff412adebe8cdf9U, 0x5f18e9d83d9dcdfdU, 0xd2f428abf70e17aeU,
  0x1cf63fd302ea260aU, 0x26c60b264759ff2cU, 0xfee32dd8dad7b3ffU, 0xcf4f403340e50fU,
  0xf1ee20ffaa03195eU, 0x58f0a608ca2fdecfU, 0xcc0f24fcfffdc62bU, 0x9e4470bcb2afb08U,
  0x3175e5fbfb083d01U, 0x3bceb51547951223U, 0x12f5ce011e63c0fbU, 0x485efae4b3f6dd12U,
  0x40d7172789ff083dU, 0xf457bc3de4acd6fdU, 0xeb9fe8f2cf582853U, 0xdcb42e24a46362cU,
  0x16d8d913605dadfaU, 0xfb9bb57b3aac03bU, 0x11c0b2ef54fdfbecU, 0x7f5cf510262b0bd7U,
  0x1c9f2544bda0ed9U, 0xced4e20955b94db9U, 0x71d3261e90deadaU, 0x17f0b3ee4526d9a0U,
  0x45e49e5e1503a31bU, 0xb4d4d60ce21cfc1dU, 0x9b435a3ad2fe1218U, 0xf3f3df032ce82c0dU,
  0xed0916123b05f3c4U, 0x26b845d638622db2U, 0x1f37e40745cef423U, 0x1e2931d32aac95c1U,
  0x33ecf7cd22e61cf7U, 0xf4dc49505f640f15U, 0xeb3a270afbd9c023U, 0xa8940a5c01fec841U,
  0x43144414d0cd0854U, 0x4c27b1f9db362acaU, 0xae1fcdbe1281ee1cU, 0x4fd94cc7f4141b0fU,
  0xc2506d3e9dd392dU, 0x5150efdcdc0f55b6U, 0x2b122db0deee053dU, 0x830f3a556468eadbU,
  0x3aedb72bcec38e0eU, 0x5207d2d51b0ccddbU, 0x2521fde02c3ef0U, 0x9d2d7f09b165a42U,
  0x1311d2e7ecdcefe1U, 0x8358c0bf00da1a34U, 0xc51e1929d5c7f3ceU, 0x3d08dcdf2ce5d7a9U,
  0xd304d3d2355d17d6U, 0xd4eadf8138cdb5ebU, 0x25de0248ef1d5c13U, 0xa3cf1f0b13c62b31U,
  0xdf17fabad2fc2aeeU, 0x13b40727fff4fe1cU, 0x36f5c5370d37d1f2U, 0x3cfaeaa2c6f2fdf6U,
  0xca3233c5d7eb4333U, 0xea00e60bb6fe1a37U, 0xd0f22b1bf3172df6U, 0x2129e9e03de71d2eU,
  0x4bb7d210f404c64fU, 0x47f1ad08ceda0906U, 0x4badd7fcf017471eU, 0x214e697ea2e4ef5U,
  0xf310a82ae3c51bacU, 0xfbf9ef3919d5eef0U, 0xcdf91eddeb2acbd0U, 0x4a22811500b3a9d4U,
  0x67b0a742490ac443U, 0xb0e00f39df063035U, 0xcd2a6e1998cffd40U, 0x41e309c02b04ba2eU,
  0xc3dffd31edd42dd5U, 0xf61722a73e2e03c4U, 0x2853fff44b004aeaU, 0x224822d2dbf900ceU,
  0xa7d459c0ede2b51bU, 0xe0e778cf4512dcccU, 0xe76fded48d151916U, 0xd5b31542b739d94fU,
  0x6b051f0def46f744U, 0x3c0d9fdc1e43f20cU, 0x1111d701f6c5d7fbU, 0x33c534bafd0dfa7fU,
  0x30e8ffffe5bbU, 0xfffff079000022d3U, 0x2f6200002676U, 0xfffff3ad00003cfeU,
  0xfffff14400002eb0U, 0x358600002ef9U, 0xffffe2f7fffff460U, 0x270affffe7faU,
  0x2459000000a3U, 0xffffecefffffe900U, 0x25bdfffff9ddU, 0x2a03fffff518U,
  0xffffed16ffffe438U, 0x166d000039a1U, 0xbc900002196U, 0x207d00002799U,
  0xffffeecf00003d3cU, 0x237c00002277U, 0x8d80000288eU, 0x30bf00002aa7U,
  0x2020fffff73dU, 0x26490000274bU, 0x205700002da5U, 0x67800002b38U,
  0xfffff09bfffff276U, 0xfffff42c00000fadU, 0x297100000910U, 0x205b000020b7U,
  0xfffff6f80000322dU, 0x2daeffffebacU, 0xffffeb77ffffff33U, 0xffffea6800003207U,
  0x35c83ad5bb0fad56U, 0xdfc242d3a162e691U, 0x29a4e62c67b6aae1U, 0x84421dad8592dfc8U,
  0xe0a524d697ccbd81U, 0xf5e25018ac96c29dU, 0xb7be3166e385163bU, 0x4bb81c33d25d39acU,
  0x92203d559d687481U, 0xd28bb1e860371b70U, 0x70bc3bac84895c24U, 0xc3fd8681677c0b0U,
  0xfeffd079ec33f509U, 0x16364f3252c44cb6U, 0x2a5e48f516f18e1cU, 0x9012afaa398a972cU,
  0xaf969fe84ab6f119U, 0x8a0c4d0cd38138d2U, 0xe80c53b8e5f44164U, 0x4394deed3fc96506U,
  0x89d3c7b4fca531afU, 0x41ceb8b090d72616U, 0x585188e75031c3f0U, 0xdd9673eb13f6d6b7U,
  0x3a5fffffda3U, 0xfffffc17U,
};


ai_handle g_imu_model_weights_table[1 + 2] = {
  AI_HANDLE_PTR(AI_MAGIC_MARKER),
  AI_HANDLE_PTR(s_imu_model_weights_array_u64),
  AI_HANDLE_PTR(AI_MAGIC_MARKER),
};

