/**
  ******************************************************************************
  * @file    imu_model_data_params.c
  * @author  AST Embedded Analytics Research Platform
  * @date    Wed Apr  9 15:08:46 2025
  * @brief   AI Tool Automatic Code Generator for Embedded NN computing
  ******************************************************************************
  * Copyright (c) 2025 STMicroelectronics.
  * All rights reserved.
  *
  * This software is licensed under terms that can be found in the LICENSE file
  * in the root directory of this software component.
  * If no LICENSE file comes with this software, it is provided AS-IS.
  ******************************************************************************
  */

#include "imu_model_data_params.h"


/**  Activations Section  ****************************************************/
ai_handle g_imu_model_activations_table[1 + 2] = {
  AI_HANDLE_PTR(AI_MAGIC_MARKER),
  AI_HANDLE_PTR(NULL),
  AI_HANDLE_PTR(AI_MAGIC_MARKER),
};




/**  Weights Section  ********************************************************/
AI_ALIGNED(32)
const ai_u64 s_imu_model_weights_array_u64[104] = {
  0x7f073c8181ed8160U, 0x7f3fe57f811b7f20U, 0x81f6b48181f4037fU, 0x2681188181027fa5U,
  0x47f81a07f897ff3U, 0x9f817ffa81e881cbU, 0x7481ba7f037f7f81U, 0x2817f017f708115U,
  0xfffffbbb00000ef0U, 0xfffffeaf00000ec6U, 0xfffff57b0000164fU, 0x60f000012baU,
  0xfffffb0c00000b75U, 0xfffff7e9000006feU, 0xfffffa4f00000dbdU, 0xed700001910U,
  0x7cffffffeb1U, 0x1dab0000090dU, 0x18a7fffffc53U, 0x9d7fffffda7U,
  0x1643000006e9U, 0x190400003c78U, 0x9b50000123fU, 0x11270000001cU,
  0x14177fcbeb0f1318U, 0xf70f130c383e47dfU, 0x422a3937e92cf2d0U, 0x1efccb6aaff5be0eU,
  0x6141a97f423707c9U, 0x41fb6770cecaa08U, 0xf81e47ef4ed75c43U, 0x32f746ff580515eeU,
  0xe711b3c6958cbd2cU, 0x60fa0781994bc7eeU, 0xd248e3c5601bd516U, 0xb941228abaefa13U,
  0xf948d207c83c8cf6U, 0x2e3fcf089e5fa85dU, 0x4da53fa67de4b2cfU, 0x49810702ed432316U,
  0xc2398143e515ae56U, 0x331793c7a904ede9U, 0x4c842d425efc5bfU, 0x1efde650232d5ec0U,
  0x2408c641b0e3c346U, 0x620cce1a007102bU, 0xf28d47aa6fd0b4e1U, 0x7f081e03102fe4a3U,
  0xdc2720c114da655dU, 0x9cc71ea4e7439f9U, 0x5c116a4a7f75f1deU, 0xdb07c46b1e74c623U,
  0x1d382429a41b6556U, 0x13087f0e4b261a3eU, 0x14ad1f15431c0aceU, 0xfedbd646d822ee16U,
  0x43afe7ffd46d5d9U, 0x47faadf6192cd151U, 0x2a4b0c0d1bec15dfU, 0xf61d26ec6e0ef055U,
  0xc87f9698e22101a7U, 0x345aaa2cb001e5c0U, 0x993e2a3491c2f81U, 0x72da953362250e3cU,
  0x31062cfd7b1ad625U, 0xe238194730b617ceU, 0xae7b81b520855b7aU, 0x1d7238fc3bfae32aU,
  0xca588d3a900e9ef7U, 0x1d20bc37f529d60cU, 0x1c8136fb47e603c2U, 0xf8e37e8f9433cfdU,
  0xfeb0637e8d8b8baU, 0x392381f5dd048b35U, 0x2ea24eea470fdd95U, 0x5e9df6e36c626d3aU,
  0x57d8ea2a39330a99U, 0x3f7f11519b5d1efU, 0xd732aed8fc98112fU, 0x115bfd81350be536U,
  0xeb32ebf6ab1f993bU, 0x597faa24a12f9d3aU, 0x14acce0ef0de36bcU, 0x431e041f323e5dfaU,
  0xd63d5be2f6e33061U, 0xd34206d505362a0cU, 0x43a57f6dfc25f0b6U, 0x3f121950114df4e1U,
  0x17dffffffe13U, 0x13b9fffff729U, 0x165a00001409U, 0x38900000896U,
  0x13cb00000ee7U, 0x1515fffffb92U, 0x2e00000195bU, 0xdf200001878U,
  0xadd9d181a6d941f5U, 0x96246dc9c65fc7feU, 0x20c4b6868bf24fbU, 0xe97f8d3425a874faU,
  0x383ba0fab431814eU, 0x14b1fa83aed5afc4U, 0x204fffffea2U, 0xfffffe43U,
};


ai_handle g_imu_model_weights_table[1 + 2] = {
  AI_HANDLE_PTR(AI_MAGIC_MARKER),
  AI_HANDLE_PTR(s_imu_model_weights_array_u64),
  AI_HANDLE_PTR(AI_MAGIC_MARKER),
};

